const unsigned char trained_tflite[] = {
  0x1c, 0x00, 0x00, 0x00, 0x54, 0x46, 0x4c, 0x33, 0x00, 0x00, 0x12, 0x00,
  0x1c, 0x00, 0x04, 0x00, 0x08, 0x00, 0x0c, 0x00, 0x10, 0x00, 0x14, 0x00,
  0x00, 0x00, 0x18, 0x00, 0x12, 0x00, 0x00, 0x00, 0x03, 0x00, 0x00, 0x00,
  0xa0, 0x0c, 0x00, 0x00, 0x10, 0x05, 0x00, 0x00, 0xf8, 0x04, 0x00, 0x00,
  0x3c, 0x00, 0x00, 0x00, 0x04, 0x00, 0x00, 0x00, 0x01, 0x00, 0x00, 0x00,
  0x0c, 0x00, 0x00, 0x00, 0x08, 0x00, 0x0c, 0x00, 0x04, 0x00, 0x08, 0x00,
  0x08, 0x00, 0x00, 0x00, 0x08, 0x00, 0x00, 0x00, 0x0c, 0x00, 0x00, 0x00,
  0x13, 0x00, 0x00, 0x00, 0x6d, 0x69, 0x6e, 0x5f, 0x72, 0x75, 0x6e, 0x74,
  0x69, 0x6d, 0x65, 0x5f, 0x76, 0x65, 0x72, 0x73, 0x69, 0x6f, 0x6e, 0x00,
  0x0d, 0x00, 0x00, 0x00, 0xb0, 0x04, 0x00, 0x00, 0x78, 0x04, 0x00, 0x00,
  0xa0, 0x03, 0x00, 0x00, 0x40, 0x03, 0x00, 0x00, 0x38, 0x03, 0x00, 0x00,
  0x30, 0x03, 0x00, 0x00, 0x10, 0x03, 0x00, 0x00, 0x08, 0x03, 0x00, 0x00,
  0x64, 0x00, 0x00, 0x00, 0x5c, 0x00, 0x00, 0x00, 0x54, 0x00, 0x00, 0x00,
  0x1c, 0x00, 0x00, 0x00, 0x04, 0x00, 0x00, 0x00, 0xea, 0xfa, 0xff, 0xff,
  0x04, 0x00, 0x00, 0x00, 0x05, 0x00, 0x00, 0x00, 0x31, 0x2e, 0x35, 0x2e,
  0x30, 0x00, 0x00, 0x00, 0xfe, 0xfa, 0xff, 0xff, 0x04, 0x00, 0x00, 0x00,
  0x28, 0x00, 0x00, 0x00, 0xeb, 0xff, 0xff, 0xff, 0x80, 0x02, 0x00, 0x00,
  0xb4, 0x00, 0x00, 0x00, 0x76, 0x01, 0x00, 0x00, 0x9a, 0xff, 0xff, 0xff,
  0x87, 0x00, 0x00, 0x00, 0xe7, 0xff, 0xff, 0xff, 0xb0, 0x00, 0x00, 0x00,
  0xba, 0xfe, 0xff, 0xff, 0x4f, 0xff, 0xff, 0xff, 0x00, 0xfb, 0xff, 0xff,
  0x04, 0xfb, 0xff, 0xff, 0x3a, 0xfb, 0xff, 0xff, 0x04, 0x00, 0x00, 0x00,
  0x94, 0x02, 0x00, 0x00, 0xf5, 0xf6, 0xe1, 0xf3, 0xf2, 0x06, 0x07, 0xf7,
  0xf5, 0xec, 0x19, 0xfa, 0xf3, 0xfa, 0xfe, 0xff, 0xfe, 0xeb, 0x08, 0xfc,
  0x01, 0xf5, 0x0c, 0x03, 0x04, 0xeb, 0xee, 0xc9, 0xec, 0xfc, 0xee, 0xf9,
  0xf4, 0x23, 0x08, 0x17, 0x0c, 0x10, 0xf8, 0xf4, 0x0a, 0x30, 0x1f, 0xf8,
  0xd4, 0x04, 0xe4, 0x00, 0x03, 0xf8, 0xf9, 0x08, 0xcf, 0xe9, 0xd3, 0xe4,
  0x07, 0xf0, 0xd4, 0xfb, 0x03, 0xf7, 0x01, 0xee, 0xe6, 0xdc, 0xe9, 0xff,
  0xec, 0x01, 0x08, 0xf7, 0xeb, 0xfd, 0xb7, 0xd0, 0x21, 0x56, 0x10, 0x2b,
  0xfe, 0xf2, 0xfd, 0xf7, 0x0a, 0x75, 0x09, 0x3f, 0x04, 0x08, 0xd3, 0xf8,
  0xf3, 0xd5, 0xe5, 0xf9, 0xba, 0xcc, 0xe3, 0xf2, 0x06, 0xe7, 0xf2, 0xd2,
  0xd0, 0x1c, 0x02, 0xf4, 0xf4, 0x1f, 0x0f, 0xfb, 0x0d, 0x02, 0xee, 0x04,
  0x09, 0x0c, 0x25, 0xfd, 0xfd, 0x23, 0x15, 0x14, 0x18, 0x0d, 0x0d, 0x19,
  0x02, 0x10, 0x17, 0x10, 0xf1, 0x02, 0xef, 0x03, 0x00, 0xf2, 0xe4, 0xfb,
  0xe5, 0xd2, 0x0b, 0x11, 0xff, 0xfb, 0xf9, 0xf5, 0xf1, 0xf3, 0x03, 0x1e,
  0xdb, 0xfc, 0xea, 0x12, 0xe2, 0xea, 0xfd, 0xf7, 0xfe, 0x00, 0xe1, 0xd8,
  0xe2, 0x25, 0xfe, 0x14, 0xf5, 0xfd, 0xe6, 0xee, 0x04, 0x37, 0x0d, 0xeb,
  0xdb, 0x0d, 0xf3, 0xf5, 0xf3, 0xff, 0x0b, 0x08, 0xe5, 0xf2, 0xd8, 0xef,
  0xee, 0xef, 0xfd, 0xf9, 0xf5, 0xfe, 0x04, 0xff, 0x05, 0xf8, 0xf2, 0x05,
  0xfa, 0xfa, 0xfa, 0x02, 0x02, 0xfd, 0xf7, 0x01, 0xf3, 0xf5, 0xf0, 0xf6,
  0x03, 0xfd, 0xf8, 0x01, 0x03, 0xff, 0x04, 0xfb, 0x08, 0xf4, 0x00, 0xfa,
  0xf5, 0xfe, 0x00, 0xfd, 0x01, 0xf8, 0xf4, 0xfa, 0x09, 0xf5, 0xfb, 0xf4,
  0x09, 0xff, 0xf5, 0x08, 0xf4, 0x06, 0xf7, 0xf5, 0xf8, 0xf9, 0xff, 0x00,
  0xf6, 0x01, 0xfc, 0xfb, 0xf6, 0xf2, 0xfe, 0xfe, 0xf5, 0x09, 0x04, 0x04,
  0x09, 0xf5, 0x0a, 0xf5, 0x01, 0xfb, 0xfe, 0xed, 0x03, 0x02, 0xf8, 0xfe,
  0x05, 0xe5, 0xd9, 0xff, 0xf4, 0xf5, 0xf0, 0xf3, 0x03, 0xfe, 0x09, 0xef,
  0xf8, 0xf0, 0xf9, 0xf5, 0xf8, 0x08, 0xf3, 0xff, 0x06, 0x00, 0xf9, 0x02,
  0xf7, 0x15, 0x03, 0x0d, 0x07, 0xf8, 0xee, 0xf2, 0xfb, 0x32, 0x0d, 0xef,
  0xcf, 0xf8, 0xe4, 0x02, 0xf8, 0xfe, 0x07, 0x0a, 0xbd, 0xea, 0xcd, 0xed,
  0xeb, 0x02, 0xf4, 0xfc, 0xf2, 0x09, 0x07, 0xf1, 0xfe, 0xf8, 0xe4, 0xec,
  0xe9, 0xf7, 0x0a, 0xfc, 0x04, 0x00, 0xf3, 0x01, 0xfb, 0xfe, 0xf1, 0x03,
  0xfc, 0xf4, 0xf8, 0x07, 0xfc, 0xfa, 0xf4, 0xf6, 0x04, 0xf2, 0xf7, 0x01,
  0xf5, 0x03, 0x02, 0xf6, 0x08, 0xfa, 0xf1, 0x0a, 0xfb, 0xfa, 0xf6, 0xf6,
  0x03, 0xfa, 0x09, 0x0f, 0x04, 0xe7, 0xec, 0xf8, 0xe6, 0xf6, 0xfd, 0x01,
  0x06, 0x09, 0xe1, 0xf4, 0xe6, 0xf8, 0xfe, 0x03, 0xf4, 0xfa, 0x07, 0xf6,
  0x07, 0xf0, 0x00, 0xf3, 0xfa, 0xff, 0xf6, 0xd9, 0xff, 0x04, 0x06, 0xfb,
  0xef, 0xf8, 0xf2, 0xf5, 0xf4, 0x01, 0x10, 0xdc, 0xf5, 0xf3, 0xf4, 0xf3,
  0xdc, 0xeb, 0xf9, 0xfd, 0xe4, 0xef, 0xe7, 0x01, 0x07, 0xfb, 0xf6, 0xea,
  0xe9, 0xf0, 0xf8, 0xee, 0xf7, 0xf3, 0xfa, 0x03, 0xfe, 0xe7, 0xea, 0x0c,
  0x16, 0xfe, 0xfd, 0xfa, 0xff, 0xf9, 0xf9, 0x03, 0x1f, 0xf2, 0x09, 0xfc,
  0xfb, 0xee, 0x04, 0x01, 0xf0, 0xfa, 0xfb, 0xee, 0x07, 0xfd, 0xf4, 0xef,
  0x07, 0xfa, 0x06, 0xfc, 0x06, 0x08, 0xfd, 0xf7, 0xf5, 0xfa, 0xf3, 0xfa,
  0x01, 0xfe, 0xf9, 0xfa, 0xfb, 0xf9, 0x03, 0x05, 0xf5, 0x00, 0x03, 0x00,
  0xf7, 0xfe, 0xfb, 0x01, 0x02, 0x00, 0x09, 0xe0, 0x01, 0xe8, 0xf5, 0xee,
  0x07, 0xf5, 0xfa, 0xd3, 0xe7, 0xfe, 0x18, 0xf5, 0x06, 0xfe, 0xee, 0x00,
  0x09, 0x08, 0x25, 0x05, 0x10, 0xf0, 0x04, 0xef, 0xf9, 0x03, 0x02, 0xff,
  0x01, 0xe5, 0xe7, 0xeb, 0xee, 0xf4, 0xfa, 0xee, 0xe8, 0xed, 0xef, 0xfa,
  0x02, 0x01, 0xf9, 0xe4, 0xea, 0xf6, 0xd3, 0xc3, 0xf5, 0xee, 0xf6, 0xfa,
  0xfc, 0xe7, 0xf5, 0xf1, 0xfe, 0x05, 0xfc, 0x0b, 0x10, 0x0b, 0xf0, 0xf2,
  0x04, 0xf6, 0xfb, 0xf0, 0xf4, 0x09, 0xf8, 0x00, 0x09, 0xf6, 0xfc, 0xfd,
  0x01, 0xfe, 0xf8, 0xf9, 0xf7, 0xfb, 0xf9, 0xfa, 0x06, 0xf1, 0xf9, 0x02,
  0xf2, 0x05, 0xf9, 0xf2, 0x06, 0x03, 0x06, 0x01, 0xfc, 0xfc, 0xf6, 0xf7,
  0x05, 0x05, 0x00, 0x01, 0xfc, 0xf8, 0xff, 0xff, 0xee, 0xe7, 0x02, 0xf3,
  0xfe, 0x08, 0xfa, 0xfe, 0xf6, 0xe6, 0xfd, 0xe5, 0xfa, 0x01, 0xf7, 0xfe,
  0x0c, 0xf9, 0x02, 0xff, 0x07, 0x04, 0x0a, 0x02, 0x04, 0x0e, 0xd8, 0x9b,
  0xdb, 0xe4, 0xf6, 0x0c, 0xfa, 0x09, 0x18, 0xe3, 0xea, 0xb7, 0x81, 0xe4,
  0xd8, 0x03, 0x0c, 0xf7, 0x07, 0x11, 0xfb, 0x09, 0x16, 0x08, 0x14, 0xff,
  0xf4, 0xe9, 0xf1, 0x08, 0xa8, 0xfd, 0xff, 0xff, 0xde, 0xfd, 0xff, 0xff,
  0x04, 0x00, 0x00, 0x00, 0x10, 0x00, 0x00, 0x00, 0xb2, 0xff, 0xff, 0xff,
  0xb9, 0xff, 0xff, 0xff, 0x4f, 0x00, 0x00, 0x00, 0xc5, 0xff, 0xff, 0xff,
  0xc8, 0xfd, 0xff, 0xff, 0xcc, 0xfd, 0xff, 0xff, 0x02, 0xfe, 0xff, 0xff,
  0x04, 0x00, 0x00, 0x00, 0x50, 0x00, 0x00, 0x00, 0x8a, 0xfd, 0xff, 0xff,
  0x2f, 0x02, 0x00, 0x00, 0xbb, 0x00, 0x00, 0x00, 0x7a, 0xff, 0xff, 0xff,
  0xdd, 0xfe, 0xff, 0xff, 0xc7, 0x01, 0x00, 0x00, 0x65, 0xff, 0xff, 0xff,
  0xa1, 0xff, 0xff, 0xff, 0xfd, 0xff, 0xff, 0xff, 0xe6, 0xff, 0xff, 0xff,
  0xdb, 0x01, 0x00, 0x00, 0xfb, 0xff, 0xff, 0xff, 0x3d, 0x00, 0x00, 0x00,
  0x1f, 0xfe, 0xff, 0xff, 0x46, 0xff, 0xff, 0xff, 0xb2, 0x01, 0x00, 0x00,
  0xe6, 0xfb, 0xff, 0xff, 0x6c, 0xff, 0xff, 0xff, 0x44, 0xfe, 0xff, 0xff,
  0x9c, 0xff, 0xff, 0xff, 0x5e, 0xfe, 0xff, 0xff, 0x04, 0x00, 0x00, 0x00,
  0xc8, 0x00, 0x00, 0x00, 0xfd, 0xf7, 0x35, 0xf0, 0x1e, 0xed, 0xfa, 0x01,
  0x00, 0xf1, 0xe3, 0x00, 0x08, 0x11, 0xfd, 0x06, 0xe5, 0xfe, 0xf8, 0x00,
  0xf1, 0xe2, 0xe2, 0x17, 0xfe, 0xef, 0x0b, 0xfb, 0xfa, 0xd8, 0xe7, 0xe9,
  0xe7, 0xff, 0xf6, 0xdc, 0xf7, 0x0a, 0x06, 0x05, 0x7f, 0xf9, 0xdf, 0x07,
  0xf7, 0xfc, 0x06, 0xfa, 0x13, 0xfb, 0xe4, 0x00, 0x11, 0x03, 0x06, 0x02,
  0x03, 0x12, 0xf5, 0x1e, 0xd6, 0xf5, 0xd2, 0xdb, 0xee, 0x03, 0x04, 0x08,
  0x25, 0xed, 0x6d, 0x19, 0x15, 0xf9, 0xfc, 0x36, 0xee, 0xfd, 0x03, 0xe3,
  0xfe, 0xfd, 0xf3, 0xf2, 0xe7, 0x03, 0xf7, 0xff, 0xf5, 0x02, 0xf7, 0xf1,
  0xd9, 0x0c, 0xfe, 0x0b, 0xfc, 0xf1, 0x09, 0xfd, 0xf7, 0xfa, 0x18, 0xf1,
  0x08, 0xe8, 0xfd, 0xfb, 0x07, 0xea, 0xd6, 0x0a, 0x10, 0x04, 0xfa, 0x0c,
  0xe2, 0xfc, 0xef, 0x15, 0xe1, 0xe7, 0xff, 0xfe, 0x02, 0xf9, 0xff, 0x04,
  0x03, 0x0e, 0xf8, 0x04, 0xd5, 0xfc, 0xff, 0xfc, 0xfa, 0xfb, 0x01, 0xf1,
  0xeb, 0x35, 0xce, 0xe4, 0x0c, 0x1c, 0xf7, 0xf8, 0x14, 0x0a, 0x99, 0x1b,
  0x0f, 0x10, 0x00, 0xff, 0x00, 0xfc, 0x05, 0x00, 0xf5, 0xf3, 0xd4, 0xfb,
  0x08, 0xf4, 0x04, 0xf2, 0x02, 0xef, 0xf8, 0x05, 0x03, 0x03, 0x00, 0x00,
  0xe8, 0x08, 0x01, 0xf6, 0xf0, 0xe9, 0xe7, 0xf6, 0xf5, 0xf8, 0x11, 0xf7,
  0x10, 0xf5, 0xf0, 0x04, 0x01, 0xfe, 0xf8, 0x03, 0xf0, 0x14, 0xf6, 0x10,
  0x32, 0xff, 0xff, 0xff, 0x04, 0x00, 0x00, 0x00, 0x28, 0x00, 0x00, 0x00,
  0xfb, 0x81, 0x06, 0xf8, 0x03, 0xfc, 0xfd, 0x10, 0x05, 0x00, 0x0b, 0xe7,
  0xff, 0xf4, 0xff, 0x06, 0x03, 0xf3, 0x02, 0x02, 0xe1, 0xc9, 0xbe, 0x2f,
  0xff, 0xf8, 0x00, 0xee, 0x00, 0xf3, 0xe6, 0x50, 0x1a, 0xed, 0xfd, 0xee,
  0xfd, 0xe3, 0xf9, 0x0c, 0x34, 0xff, 0xff, 0xff, 0x0f, 0x00, 0x00, 0x00,
  0x54, 0x4f, 0x43, 0x4f, 0x20, 0x43, 0x6f, 0x6e, 0x76, 0x65, 0x72, 0x74,
  0x65, 0x64, 0x2e, 0x00, 0x01, 0x00, 0x00, 0x00, 0x04, 0x00, 0x00, 0x00,
  0x7c, 0xf9, 0xff, 0xff, 0x94, 0x01, 0x00, 0x00, 0x88, 0x01, 0x00, 0x00,
  0x7c, 0x01, 0x00, 0x00, 0x04, 0x00, 0x00, 0x00, 0x06, 0x00, 0x00, 0x00,
  0x50, 0x01, 0x00, 0x00, 0x04, 0x01, 0x00, 0x00, 0xbc, 0x00, 0x00, 0x00,
  0x74, 0x00, 0x00, 0x00, 0x38, 0x00, 0x00, 0x00, 0x04, 0x00, 0x00, 0x00,
  0xd2, 0xfe, 0xff, 0xff, 0x03, 0x00, 0x00, 0x00, 0x10, 0x00, 0x00, 0x00,
  0x04, 0x00, 0x00, 0x00, 0x01, 0x00, 0x00, 0x00, 0x0c, 0x00, 0x00, 0x00,
  0x01, 0x00, 0x00, 0x00, 0x00, 0x00, 0x00, 0x00, 0x00, 0x00, 0x0e, 0x00,
  0x1a, 0x00, 0x08, 0x00, 0x0c, 0x00, 0x10, 0x00, 0x07, 0x00, 0x14, 0x00,
  0x0e, 0x00, 0x00, 0x00, 0x00, 0x00, 0x00, 0x09, 0x01, 0x00, 0x00, 0x00,
  0x24, 0x00, 0x00, 0x00, 0x18, 0x00, 0x00, 0x00, 0x0c, 0x00, 0x00, 0x00,
  0x00, 0x00, 0x06, 0x00, 0x08, 0x00, 0x04, 0x00, 0x06, 0x00, 0x00, 0x00,
  0x00, 0x00, 0x80, 0x3f, 0x01, 0x00, 0x00, 0x00, 0x00, 0x00, 0x00, 0x00,
  0x01, 0x00, 0x00, 0x00, 0x07, 0x00, 0x00, 0x00, 0xca, 0xff, 0xff, 0xff,
  0x00, 0x00, 0x00, 0x08, 0x1c, 0x00, 0x00, 0x00, 0x10, 0x00, 0x00, 0x00,
  0x08, 0x00, 0x00, 0x00, 0x04, 0x00, 0x04, 0x00, 0x04, 0x00, 0x00, 0x00,
  0x01, 0x00, 0x00, 0x00, 0x07, 0x00, 0x00, 0x00, 0x03, 0x00, 0x00, 0x00,
  0x06, 0x00, 0x00, 0x00, 0x08, 0x00, 0x00, 0x00, 0x09, 0x00, 0x00, 0x00,
  0x00, 0x00, 0x0e, 0x00, 0x14, 0x00, 0x00, 0x00, 0x08, 0x00, 0x0c, 0x00,
  0x07, 0x00, 0x10, 0x00, 0x0e, 0x00, 0x00, 0x00, 0x00, 0x00, 0x00, 0x08,
  0x1c, 0x00, 0x00, 0x00, 0x10, 0x00, 0x00, 0x00, 0x04, 0x00, 0x00, 0x00,
  0xba, 0xff, 0xff, 0xff, 0x00, 0x00, 0x00, 0x01, 0x01, 0x00, 0x00, 0x00,
  0x06, 0x00, 0x00, 0x00, 0x03, 0x00, 0x00, 0x00, 0x03, 0x00, 0x00, 0x00,
  0x04, 0x00, 0x00, 0x00, 0x05, 0x00, 0x00, 0x00, 0x00, 0x00, 0x0e, 0x00,
  0x16, 0x00, 0x00, 0x00, 0x08, 0x00, 0x0c, 0x00, 0x07, 0x00, 0x10, 0x00,
  0x0e, 0x00, 0x00, 0x00, 0x00, 0x00, 0x00, 0x08, 0x24, 0x00, 0x00, 0x00,
  0x18, 0x00, 0x00, 0x00, 0x0c, 0x00, 0x00, 0x00, 0x00, 0x00, 0x06, 0x00,
  0x08, 0x00, 0x07, 0x00, 0x06, 0x00, 0x00, 0x00, 0x00, 0x00, 0x00, 0x01,
  0x01, 0x00, 0x00, 0x00, 0x03, 0x00, 0x00, 0x00, 0x03, 0x00, 0x00, 0x00,
  0x0a, 0x00, 0x00, 0x00, 0x01, 0x00, 0x00, 0x00, 0x02, 0x00, 0x00, 0x00,
  0x00, 0x00, 0x0a, 0x00, 0x10, 0x00, 0x04, 0x00, 0x08, 0x00, 0x0c, 0x00,
  0x0a, 0x00, 0x00, 0x00, 0x02, 0x00, 0x00, 0x00, 0x10, 0x00, 0x00, 0x00,
  0x04, 0x00, 0x00, 0x00, 0x01, 0x00, 0x00, 0x00, 0x0a, 0x00, 0x00, 0x00,
  0x01, 0x00, 0x00, 0x00, 0x0b, 0x00, 0x00, 0x00, 0x01, 0x00, 0x00, 0x00,
  0x0c, 0x00, 0x00, 0x00, 0x01, 0x00, 0x00, 0x00, 0x0b, 0x00, 0x00, 0x00,
  0x0d, 0x00, 0x00, 0x00, 0x80, 0x05, 0x00, 0x00, 0xcc, 0x04, 0x00, 0x00,
  0x64, 0x04, 0x00, 0x00, 0xe8, 0x03, 0x00, 0x00, 0x4c, 0x03, 0x00, 0x00,
  0xe0, 0x02, 0x00, 0x00, 0x64, 0x02, 0x00, 0x00, 0xe0, 0x01, 0x00, 0x00,
  0x44, 0x01, 0x00, 0x00, 0xd8, 0x00, 0x00, 0x00, 0x64, 0x00, 0x00, 0x00,
  0x3c, 0x00, 0x00, 0x00, 0x04, 0x00, 0x00, 0x00, 0xd8, 0xff, 0xff, 0xff,
  0x18, 0x00, 0x00, 0x00, 0x04, 0x00, 0x00, 0x00, 0x08, 0x00, 0x00, 0x00,
  0x49, 0x64, 0x65, 0x6e, 0x74, 0x69, 0x74, 0x79, 0x00, 0x00, 0x00, 0x00,
  0x02, 0x00, 0x00, 0x00, 0x01, 0x00, 0x00, 0x00, 0x04, 0x00, 0x00, 0x00,
  0x0c, 0x00, 0x0c, 0x00, 0x04, 0x00, 0x00, 0x00, 0x00, 0x00, 0x08, 0x00,
  0x0c, 0x00, 0x00, 0x00, 0x14, 0x00, 0x00, 0x00, 0x04, 0x00, 0x00, 0x00,
  0x07, 0x00, 0x00, 0x00, 0x78, 0x5f, 0x69, 0x6e, 0x70, 0x75, 0x74, 0x00,
  0x02, 0x00, 0x00, 0x00, 0x01, 0x00, 0x00, 0x00, 0x21, 0x00, 0x00, 0x00,
  0x1a, 0xfb, 0xff, 0xff, 0x00, 0x00, 0x00, 0x09, 0x5c, 0x00, 0x00, 0x00,
  0x04, 0x00, 0x00, 0x00, 0x40, 0x00, 0x00, 0x00, 0x04, 0x00, 0x00, 0x00,
  0xbc, 0xfb, 0xff, 0xff, 0x2c, 0x00, 0x00, 0x00, 0x20, 0x00, 0x00, 0x00,
  0x14, 0x00, 0x00, 0x00, 0x04, 0x00, 0x00, 0x00, 0x01, 0x00, 0x00, 0x00,
  0x80, 0xff, 0xff, 0xff, 0xff, 0xff, 0xff, 0xff, 0x01, 0x00, 0x00, 0x00,
  0x39, 0xb0, 0xd1, 0x3c, 0x01, 0x00, 0x00, 0x00, 0x89, 0xde, 0xd0, 0x40,
  0x01, 0x00, 0x00, 0x00, 0x00, 0x00, 0x00, 0x00, 0x0c, 0x00, 0x00, 0x00,
  0x78, 0x5f, 0x69, 0x6e, 0x70, 0x75, 0x74, 0x5f, 0x69, 0x6e, 0x74, 0x38,
  0x00, 0x00, 0x00, 0x00, 0x02, 0x00, 0x00, 0x00, 0x01, 0x00, 0x00, 0x00,
  0x21, 0x00, 0x00, 0x00, 0x8a, 0xfb, 0xff, 0xff, 0x00, 0x00, 0x00, 0x02,
  0x58, 0x00, 0x00, 0x00, 0x06, 0x00, 0x00, 0x00, 0x2c, 0x00, 0x00, 0x00,
  0x04, 0x00, 0x00, 0x00, 0x7c, 0xfb, 0xff, 0xff, 0x18, 0x00, 0x00, 0x00,
  0x04, 0x00, 0x00, 0x00, 0x01, 0x00, 0x00, 0x00, 0x00, 0x00, 0x00, 0x00,
  0x00, 0x00, 0x00, 0x00, 0x00, 0x00, 0x00, 0x00, 0x01, 0x00, 0x00, 0x00,
  0x80, 0xee, 0xce, 0x3b, 0x1d, 0x00, 0x00, 0x00, 0x73, 0x65, 0x71, 0x75,
  0x65, 0x6e, 0x74, 0x69, 0x61, 0x6c, 0x2f, 0x79, 0x5f, 0x70, 0x72, 0x65,
  0x64, 0x2f, 0x4d, 0x61, 0x74, 0x4d, 0x75, 0x6c, 0x5f, 0x62, 0x69, 0x61,
  0x73, 0x00, 0x00, 0x00, 0x01, 0x00, 0x00, 0x00, 0x04, 0x00, 0x00, 0x00,
  0xf2, 0xfb, 0xff, 0xff, 0x00, 0x00, 0x00, 0x09, 0x84, 0x00, 0x00, 0x00,
  0x01, 0x00, 0x00, 0x00, 0x44, 0x00, 0x00, 0x00, 0x04, 0x00, 0x00, 0x00,
  0x94, 0xfc, 0xff, 0xff, 0x30, 0x00, 0x00, 0x00, 0x24, 0x00, 0x00, 0x00,
  0x18, 0x00, 0x00, 0x00, 0x04, 0x00, 0x00, 0x00, 0x01, 0x00, 0x00, 0x00,
  0x00, 0x00, 0x00, 0x00, 0x00, 0x00, 0x00, 0x00, 0x00, 0x00, 0x00, 0x00,
  0x01, 0x00, 0x00, 0x00, 0x9c, 0xda, 0xc6, 0x3d, 0x01, 0x00, 0x00, 0x00,
  0x3a, 0x56, 0xf9, 0x40, 0x01, 0x00, 0x00, 0x00, 0xe7, 0x4c, 0x45, 0xc1,
  0x31, 0x00, 0x00, 0x00, 0x73, 0x65, 0x71, 0x75, 0x65, 0x6e, 0x74, 0x69,
  0x61, 0x6c, 0x2f, 0x79, 0x5f, 0x70, 0x72, 0x65, 0x64, 0x2f, 0x4d, 0x61,
  0x74, 0x4d, 0x75, 0x6c, 0x2f, 0x52, 0x65, 0x61, 0x64, 0x56, 0x61, 0x72,
  0x69, 0x61, 0x62, 0x6c, 0x65, 0x4f, 0x70, 0x2f, 0x74, 0x72, 0x61, 0x6e,
  0x73, 0x70, 0x6f, 0x73, 0x65, 0x00, 0x00, 0x00, 0x02, 0x00, 0x00, 0x00,
  0x04, 0x00, 0x00, 0x00, 0x0a, 0x00, 0x00, 0x00, 0x8a, 0xfc, 0xff, 0xff,
  0x00, 0x00, 0x00, 0x09, 0x6c, 0x00, 0x00, 0x00, 0x05, 0x00, 0x00, 0x00,
  0x44, 0x00, 0x00, 0x00, 0x04, 0x00, 0x00, 0x00, 0x2c, 0xfd, 0xff, 0xff,
  0x30, 0x00, 0x00, 0x00, 0x24, 0x00, 0x00, 0x00, 0x18, 0x00, 0x00, 0x00,
  0x04, 0x00, 0x00, 0x00, 0x01, 0x00, 0x00, 0x00, 0x0e, 0x00, 0x00, 0x00,
  0x00, 0x00, 0x00, 0x00, 0x00, 0x00, 0x00, 0x00, 0x01, 0x00, 0x00, 0x00,
  0xc0, 0x8f, 0xa6, 0x3f, 0x01, 0x00, 0x00, 0x00, 0xba, 0xa8, 0x13, 0x43,
  0x01, 0x00, 0x00, 0x00, 0xa6, 0x29, 0x38, 0xc3, 0x19, 0x00, 0x00, 0x00,
  0x73, 0x65, 0x71, 0x75, 0x65, 0x6e, 0x74, 0x69, 0x61, 0x6c, 0x2f, 0x79,
  0x5f, 0x70, 0x72, 0x65, 0x64, 0x2f, 0x42, 0x69, 0x61, 0x73, 0x41, 0x64,
  0x64, 0x00, 0x00, 0x00, 0x02, 0x00, 0x00, 0x00, 0x01, 0x00, 0x00, 0x00,
  0x04, 0x00, 0x00, 0x00, 0x0a, 0xfd, 0xff, 0xff, 0x00, 0x00, 0x00, 0x09,
  0x64, 0x00, 0x00, 0x00, 0x0a, 0x00, 0x00, 0x00, 0x40, 0x00, 0x00, 0x00,
  0x04, 0x00, 0x00, 0x00, 0xac, 0xfd, 0xff, 0xff, 0x2c, 0x00, 0x00, 0x00,
  0x20, 0x00, 0x00, 0x00, 0x14, 0x00, 0x00, 0x00, 0x04, 0x00, 0x00, 0x00,
  0x01, 0x00, 0x00, 0x00, 0x80, 0xff, 0xff, 0xff, 0xff, 0xff, 0xff, 0xff,
  0x01, 0x00, 0x00, 0x00, 0x14, 0x33, 0x85, 0x3d, 0x01, 0x00, 0x00, 0x00,
  0xe1, 0xad, 0x84, 0x41, 0x01, 0x00, 0x00, 0x00, 0x00, 0x00, 0x00, 0x00,
  0x17, 0x00, 0x00, 0x00, 0x73, 0x65, 0x71, 0x75, 0x65, 0x6e, 0x74, 0x69,
  0x61, 0x6c, 0x2f, 0x64, 0x65, 0x6e, 0x73, 0x65, 0x5f, 0x31, 0x2f, 0x52,
  0x65, 0x6c, 0x75, 0x00, 0x02, 0x00, 0x00, 0x00, 0x01, 0x00, 0x00, 0x00,
  0x0a, 0x00, 0x00, 0x00, 0x82, 0xfd, 0xff, 0xff, 0x00, 0x00, 0x00, 0x02,
  0x58, 0x00, 0x00, 0x00, 0x0b, 0x00, 0x00, 0x00, 0x2c, 0x00, 0x00, 0x00,
  0x04, 0x00, 0x00, 0x00, 0x74, 0xfd, 0xff, 0xff, 0x18, 0x00, 0x00, 0x00,
  0x04, 0x00, 0x00, 0x00, 0x01, 0x00, 0x00, 0x00, 0x00, 0x00, 0x00, 0x00,
  0x00, 0x00, 0x00, 0x00, 0x00, 0x00, 0x00, 0x00, 0x01, 0x00, 0x00, 0x00,
  0x9b, 0x88, 0x0f, 0x3b, 0x1e, 0x00, 0x00, 0x00, 0x73, 0x65, 0x71, 0x75,
  0x65, 0x6e, 0x74, 0x69, 0x61, 0x6c, 0x2f, 0x64, 0x65, 0x6e, 0x73, 0x65,
  0x5f, 0x31, 0x2f, 0x4d, 0x61, 0x74, 0x4d, 0x75, 0x6c, 0x5f, 0x62, 0x69,
  0x61, 0x73, 0x00, 0x00, 0x01, 0x00, 0x00, 0x00, 0x0a, 0x00, 0x00, 0x00,
  0xea, 0xfd, 0xff, 0xff, 0x00, 0x00, 0x00, 0x09, 0x84, 0x00, 0x00, 0x00,
  0x02, 0x00, 0x00, 0x00, 0x44, 0x00, 0x00, 0x00, 0x04, 0x00, 0x00, 0x00,
  0x8c, 0xfe, 0xff, 0xff, 0x30, 0x00, 0x00, 0x00, 0x24, 0x00, 0x00, 0x00,
  0x18, 0x00, 0x00, 0x00, 0x04, 0x00, 0x00, 0x00, 0x01, 0x00, 0x00, 0x00,
  0x00, 0x00, 0x00, 0x00, 0x00, 0x00, 0x00, 0x00, 0x00, 0x00, 0x00, 0x00,
  0x01, 0x00, 0x00, 0x00, 0x6f, 0x4d, 0x0d, 0x3d, 0x01, 0x00, 0x00, 0x00,
  0xd4, 0x32, 0x8c, 0x40, 0x01, 0x00, 0x00, 0x00, 0xa9, 0x3c, 0x64, 0xc0,
  0x32, 0x00, 0x00, 0x00, 0x73, 0x65, 0x71, 0x75, 0x65, 0x6e, 0x74, 0x69,
  0x61, 0x6c, 0x2f, 0x64, 0x65, 0x6e, 0x73, 0x65, 0x5f, 0x31, 0x2f, 0x4d,
  0x61, 0x74, 0x4d, 0x75, 0x6c, 0x2f, 0x52, 0x65, 0x61, 0x64, 0x56, 0x61,
  0x72, 0x69, 0x61, 0x62, 0x6c, 0x65, 0x4f, 0x70, 0x2f, 0x74, 0x72, 0x61,
  0x6e, 0x73, 0x70, 0x6f, 0x73, 0x65, 0x00, 0x00, 0x02, 0x00, 0x00, 0x00,
  0x0a, 0x00, 0x00, 0x00, 0x14, 0x00, 0x00, 0x00, 0x82, 0xfe, 0xff, 0xff,
  0x00, 0x00, 0x00, 0x09, 0x64, 0x00, 0x00, 0x00, 0x07, 0x00, 0x00, 0x00,
  0x40, 0x00, 0x00, 0x00, 0x04, 0x00, 0x00, 0x00, 0x24, 0xff, 0xff, 0xff,
  0x2c, 0x00, 0x00, 0x00, 0x20, 0x00, 0x00, 0x00, 0x14, 0x00, 0x00, 0x00,
  0x04, 0x00, 0x00, 0x00, 0x01, 0x00, 0x00, 0x00, 0x80, 0xff, 0xff, 0xff,
  0xff, 0xff, 0xff, 0xff, 0x01, 0x00, 0x00, 0x00, 0x67, 0x05, 0x82, 0x3d,
  0x01, 0x00, 0x00, 0x00, 0x62, 0x83, 0x81, 0x41, 0x01, 0x00, 0x00, 0x00,
  0x00, 0x00, 0x00, 0x00, 0x15, 0x00, 0x00, 0x00, 0x73, 0x65, 0x71, 0x75,
  0x65, 0x6e, 0x74, 0x69, 0x61, 0x6c, 0x2f, 0x64, 0x65, 0x6e, 0x73, 0x65,
  0x2f, 0x52, 0x65, 0x6c, 0x75, 0x00, 0x00, 0x00, 0x02, 0x00, 0x00, 0x00,
  0x01, 0x00, 0x00, 0x00, 0x14, 0x00, 0x00, 0x00, 0xfa, 0xfe, 0xff, 0xff,
  0x00, 0x00, 0x00, 0x02, 0x54, 0x00, 0x00, 0x00, 0x03, 0x00, 0x00, 0x00,
  0x28, 0x00, 0x00, 0x00, 0x04, 0x00, 0x00, 0x00, 0xec, 0xfe, 0xff, 0xff,
  0x14, 0x00, 0x00, 0x00, 0x04, 0x00, 0x00, 0x00, 0x01, 0x00, 0x00, 0x00,
  0x00, 0x00, 0x00, 0x00, 0x00, 0x00, 0x00, 0x00, 0x01, 0x00, 0x00, 0x00,
  0x3e, 0x83, 0x36, 0x3a, 0x1c, 0x00, 0x00, 0x00, 0x73, 0x65, 0x71, 0x75,
  0x65, 0x6e, 0x74, 0x69, 0x61, 0x6c, 0x2f, 0x64, 0x65, 0x6e, 0x73, 0x65,
  0x2f, 0x4d, 0x61, 0x74, 0x4d, 0x75, 0x6c, 0x5f, 0x62, 0x69, 0x61, 0x73,
  0x00, 0x00, 0x00, 0x00, 0x01, 0x00, 0x00, 0x00, 0x14, 0x00, 0x00, 0x00,
  0x5e, 0xff, 0xff, 0xff, 0x00, 0x00, 0x00, 0x09, 0x8c, 0x00, 0x00, 0x00,
  0x08, 0x00, 0x00, 0x00, 0x4c, 0x00, 0x00, 0x00, 0x10, 0x00, 0x00, 0x00,
  0x0c, 0x00, 0x14, 0x00, 0x04, 0x00, 0x08, 0x00, 0x0c, 0x00, 0x10, 0x00,
  0x0c, 0x00, 0x00, 0x00, 0x2c, 0x00, 0x00, 0x00, 0x20, 0x00, 0x00, 0x00,
  0x14, 0x00, 0x00, 0x00, 0x04, 0x00, 0x00, 0x00, 0x01, 0x00, 0x00, 0x00,
  0x00, 0x00, 0x00, 0x00, 0x00, 0x00, 0x00, 0x00, 0x01, 0x00, 0x00, 0x00,
  0x81, 0xd2, 0xde, 0x3c, 0x01, 0x00, 0x00, 0x00, 0xae, 0x0a, 0x4c, 0x40,
  0x01, 0x00, 0x00, 0x00, 0xdc, 0x14, 0x5d, 0xc0, 0x30, 0x00, 0x00, 0x00,
  0x73, 0x65, 0x71, 0x75, 0x65, 0x6e, 0x74, 0x69, 0x61, 0x6c, 0x2f, 0x64,
  0x65, 0x6e, 0x73, 0x65, 0x2f, 0x4d, 0x61, 0x74, 0x4d, 0x75, 0x6c, 0x2f,
  0x52, 0x65, 0x61, 0x64, 0x56, 0x61, 0x72, 0x69, 0x61, 0x62, 0x6c, 0x65,
  0x4f, 0x70, 0x2f, 0x74, 0x72, 0x61, 0x6e, 0x73, 0x70, 0x6f, 0x73, 0x65,
  0x00, 0x00, 0x00, 0x00, 0x02, 0x00, 0x00, 0x00, 0x14, 0x00, 0x00, 0x00,
  0x21, 0x00, 0x00, 0x00, 0x00, 0x00, 0x0e, 0x00, 0x18, 0x00, 0x08, 0x00,
  0x07, 0x00, 0x0c, 0x00, 0x10, 0x00, 0x14, 0x00, 0x0e, 0x00, 0x00, 0x00,
  0x00, 0x00, 0x00, 0x09, 0x54, 0x00, 0x00, 0x00, 0x09, 0x00, 0x00, 0x00,
  0x38, 0x00, 0x00, 0x00, 0x10, 0x00, 0x00, 0x00, 0x0c, 0x00, 0x0c, 0x00,
  0x00, 0x00, 0x00, 0x00, 0x04, 0x00, 0x08, 0x00, 0x0c, 0x00, 0x00, 0x00,
  0x18, 0x00, 0x00, 0x00, 0x04, 0x00, 0x00, 0x00, 0x01, 0x00, 0x00, 0x00,
  0x80, 0xff, 0xff, 0xff, 0xff, 0xff, 0xff, 0xff, 0x00, 0x00, 0x00, 0x00,
  0x01, 0x00, 0x00, 0x00, 0x00, 0x00, 0x80, 0x3b, 0x0d, 0x00, 0x00, 0x00,
  0x49, 0x64, 0x65, 0x6e, 0x74, 0x69, 0x74, 0x79, 0x5f, 0x69, 0x6e, 0x74,
  0x38, 0x00, 0x00, 0x00, 0x02, 0x00, 0x00, 0x00, 0x01, 0x00, 0x00, 0x00,
  0x04, 0x00, 0x00, 0x00, 0x04, 0x00, 0x00, 0x00, 0x4c, 0x00, 0x00, 0x00,
  0x30, 0x00, 0x00, 0x00, 0x1c, 0x00, 0x00, 0x00, 0x04, 0x00, 0x00, 0x00,
  0xe6, 0xff, 0xff, 0xff, 0x00, 0x00, 0x00, 0x06, 0x02, 0x00, 0x00, 0x00,
  0x00, 0x00, 0x06, 0x00, 0x06, 0x00, 0x05, 0x00, 0x06, 0x00, 0x00, 0x00,
  0x00, 0x72, 0x0a, 0x00, 0x0e, 0x00, 0x07, 0x00, 0x00, 0x00, 0x08, 0x00,
  0x0a, 0x00, 0x00, 0x00, 0x00, 0x00, 0x00, 0x19, 0x02, 0x00, 0x00, 0x00,
  0x00, 0x00, 0x0a, 0x00, 0x0c, 0x00, 0x07, 0x00, 0x00, 0x00, 0x08, 0x00,
  0x0a, 0x00, 0x00, 0x00, 0x00, 0x00, 0x00, 0x09, 0x04, 0x00, 0x00, 0x00
};
unsigned int trained_tflite_len = 3360;
